const unsigned char g_model[] __attribute__((aligned(4))) = {
  0x1c, 0x00, 0x00, 0x00, 0x54, 0x46, 0x4c, 0x33, 0x14, 0x00, 0x20, 0x00, 
  0x1c, 0x00, 0x18, 0x00, 0x14, 0x00, 0x10, 0x00, 0x0c, 0x00, 0x00, 0x00, 
  0x08, 0x00, 0x04, 0x00, 0x14, 0x00, 0x00, 0x00, 0x1c, 0x00, 0x00, 0x00, 
  0x98, 0x00, 0x00, 0x00, 0xf0, 0x00, 0x00, 0x00, 0xa4, 0x13, 0x00, 0x00, 
  0xb4, 0x13, 0x00, 0x00, 0x78, 0x19, 0x00, 0x00, 0x03, 0x00, 0x00, 0x00, 
  0x01, 0x00, 0x00, 0x00, 0x10, 0x00, 0x00, 0x00, 0x00, 0x00, 0x0a, 0x00, 
  0x10, 0x00, 0x0c, 0x00, 0x08, 0x00, 0x04, 0x00, 0x0a, 0x00, 0x00, 0x00, 
  0x0c, 0x00, 0x00, 0x00, 0x1c, 0x00, 0x00, 0x00, 0x3c, 0x00, 0x00, 0x00, 
  0x0f, 0x00, 0x00, 0x00, 0x73, 0x65, 0x72, 0x76, 0x69, 0x6e, 0x67, 0x5f, 
  0x64, 0x65, 0x66, 0x61, 0x75, 0x6c, 0x74, 0x00, 0x01, 0x00, 0x00, 0x00, 
  0x04, 0x00, 0x00, 0x00, 0x90, 0xff, 0xff, 0xff, 0x0a, 0x00, 0x00, 0x00, 
  0x04, 0x00, 0x00, 0x00, 0x08, 0x00, 0x00, 0x00, 0x6f, 0x75, 0x74, 0x70, 
  0x75, 0x74, 0x5f, 0x30, 0x00, 0x00, 0x00, 0x00, 0x01, 0x00, 0x00, 0x00, 
  0x04, 0x00, 0x00, 0x00, 0x42, 0xec, 0xff, 0xff, 0x04, 0x00, 0x00, 0x00, 
  0x0e, 0x00, 0x00, 0x00, 0x6b, 0x65, 0x72, 0x61, 0x73, 0x5f, 0x74, 0x65, 
  0x6e, 0x73, 0x6f, 0x72, 0x5f, 0x35, 0x00, 0x00, 0x02, 0x00, 0x00, 0x00, 
  0x34, 0x00, 0x00, 0x00, 0x04, 0x00, 0x00, 0x00, 0xdc, 0xff, 0xff, 0xff, 
  0x0d, 0x00, 0x00, 0x00, 0x04, 0x00, 0x00, 0x00, 0x13, 0x00, 0x00, 0x00, 
  0x43, 0x4f, 0x4e, 0x56, 0x45, 0x52, 0x53, 0x49, 0x4f, 0x4e, 0x5f, 0x4d, 
  0x45, 0x54, 0x41, 0x44, 0x41, 0x54, 0x41, 0x00, 0x08, 0x00, 0x0c, 0x00, 
  0x08, 0x00, 0x04, 0x00, 0x08, 0x00, 0x00, 0x00, 0x0c, 0x00, 0x00, 0x00, 
  0x04, 0x00, 0x00, 0x00, 0x13, 0x00, 0x00, 0x00, 0x6d, 0x69, 0x6e, 0x5f, 
  0x72, 0x75, 0x6e, 0x74, 0x69, 0x6d, 0x65, 0x5f, 0x76, 0x65, 0x72, 0x73, 
  0x69, 0x6f, 0x6e, 0x00, 0x0e, 0x00, 0x00, 0x00, 0xb0, 0x12, 0x00, 0x00, 
  0xa8, 0x12, 0x00, 0x00, 0x58, 0x11, 0x00, 0x00, 0x48, 0x09, 0x00, 0x00, 
  0x24, 0x09, 0x00, 0x00, 0xd4, 0x08, 0x00, 0x00, 0x44, 0x08, 0x00, 0x00, 
  0xb4, 0x00, 0x00, 0x00, 0xac, 0x00, 0x00, 0x00, 0xa4, 0x00, 0x00, 0x00, 
  0x9c, 0x00, 0x00, 0x00, 0x94, 0x00, 0x00, 0x00, 0x74, 0x00, 0x00, 0x00, 
  0x04, 0x00, 0x00, 0x00, 0xf6, 0xec, 0xff, 0xff, 0x04, 0x00, 0x00, 0x00, 
  0x60, 0x00, 0x00, 0x00, 0x0c, 0x00, 0x00, 0x00, 0x08, 0x00, 0x0e, 0x00, 
  0x08, 0x00, 0x04, 0x00, 0x08, 0x00, 0x00, 0x00, 0x10, 0x00, 0x00, 0x00, 
  0x28, 0x00, 0x00, 0x00, 0x00, 0x00, 0x06, 0x00, 0x08, 0x00, 0x04, 0x00, 
  0x06, 0x00, 0x00, 0x00, 0x04, 0x00, 0x00, 0x00, 0x01, 0x00, 0x00, 0x00, 
  0xea, 0x03, 0x00, 0x00, 0x0c, 0x00, 0x18, 0x00, 0x14, 0x00, 0x10, 0x00, 
  0x0c, 0x00, 0x04, 0x00, 0x0c, 0x00, 0x00, 0x00, 0x77, 0x4c, 0x96, 0x72, 
  0xc1, 0xde, 0xaa, 0x93, 0x02, 0x00, 0x00, 0x00, 0x02, 0x00, 0x00, 0x00, 
  0x04, 0x00, 0x00, 0x00, 0x06, 0x00, 0x00, 0x00, 0x32, 0x2e, 0x31, 0x39, 
  0x2e, 0x30, 0x00, 0x00, 0x62, 0xed, 0xff, 0xff, 0x04, 0x00, 0x00, 0x00, 
  0x10, 0x00, 0x00, 0x00, 0x31, 0x2e, 0x35, 0x2e, 0x30, 0x00, 0x00, 0x00, 
  0x00, 0x00, 0x00, 0x00, 0x00, 0x00, 0x00, 0x00, 0x6c, 0xe8, 0xff, 0xff, 
  0x70, 0xe8, 0xff, 0xff, 0x74, 0xe8, 0xff, 0xff, 0x78, 0xe8, 0xff, 0xff, 
  0x8e, 0xed, 0xff, 0xff, 0x04, 0x00, 0x00, 0x00, 0x80, 0x07, 0x00, 0x00, 
  0xab, 0x5c, 0x9f, 0xbe, 0x12, 0x8c, 0x15, 0x3e, 0xe8, 0xc7, 0xa3, 0xbe, 
  0x66, 0xbc, 0x46, 0x3e, 0x24, 0x60, 0xe6, 0x3e, 0xfc, 0xc0, 0xda, 0xbe, 
  0x41, 0x2a, 0x33, 0xbe, 0x67, 0xec, 0x1f, 0xbe, 0x6e, 0xdd, 0x10, 0x3f, 
  0xc7, 0xfd, 0x13, 0xbf, 0x1f, 0x2f, 0x38, 0xbf, 0x7a, 0xe5, 0x44, 0xbe, 
  0xcd, 0xd8, 0xf1, 0x3e, 0x70, 0xee, 0x1f, 0x3d, 0xbf, 0x6b, 0x3f, 0xbf, 
  0x0b, 0x76, 0xfc, 0xbf, 0x79, 0x01, 0x62, 0xbf, 0x5d, 0x9a, 0xfa, 0x3e, 
  0x89, 0xdf, 0x77, 0x3f, 0xad, 0x7a, 0x4a, 0x3f, 0xd1, 0x82, 0x12, 0xbe, 
  0x30, 0x0f, 0xa9, 0x3e, 0x39, 0xa9, 0x93, 0xbe, 0x0c, 0x23, 0x85, 0xbd, 
  0xbd, 0x17, 0x9b, 0xbd, 0x3f, 0xd8, 0x96, 0xbd, 0x99, 0xd7, 0xb2, 0x3c, 
  0x48, 0x9d, 0x3d, 0x3d, 0x7a, 0x7b, 0x8f, 0xbd, 0xec, 0x26, 0xdd, 0xbc, 
  0xbe, 0x29, 0xe8, 0x3e, 0x7d, 0xae, 0x0f, 0x3f, 0xda, 0xcc, 0xcb, 0x3f, 
  0x17, 0x42, 0x0d, 0x3e, 0xb0, 0x15, 0x0c, 0x3e, 0x25, 0x2d, 0xa3, 0xbf, 
  0xe5, 0xa0, 0x57, 0xbf, 0x9b, 0x51, 0x25, 0xbf, 0xfe, 0xbe, 0x0b, 0x3e, 
  0x5d, 0x5e, 0x62, 0x3e, 0x58, 0xe8, 0x80, 0x3d, 0x7a, 0xa0, 0x55, 0x3e, 
  0x7d, 0xd7, 0x49, 0xbc, 0x03, 0x36, 0x7a, 0x3d, 0xa4, 0xaa, 0x84, 0xbc, 
  0x42, 0x73, 0x81, 0xbe, 0x28, 0x6e, 0x8a, 0x3e, 0x35, 0x71, 0x8b, 0xbf, 
  0xc6, 0x1f, 0x88, 0x3d, 0x63, 0xe2, 0x30, 0x3e, 0xe5, 0x4a, 0xe5, 0xbe, 
  0x3d, 0x41, 0x9e, 0x3e, 0x51, 0x40, 0x07, 0xbd, 0x6e, 0x9f, 0x98, 0xbf, 
  0xf7, 0x74, 0xa3, 0x3d, 0xb3, 0x8e, 0x8e, 0x3b, 0x24, 0x30, 0x88, 0x3d, 
  0x34, 0xa3, 0x42, 0x3d, 0x84, 0xaa, 0x10, 0xbd, 0xd3, 0xdb, 0x1d, 0x3d, 
  0xd9, 0x37, 0xd9, 0xbf, 0x92, 0xbd, 0xfb, 0x3e, 0xbc, 0x8e, 0x62, 0x3e, 
  0xd5, 0xa5, 0xf1, 0x3d, 0x0f, 0x1c, 0x16, 0xbe, 0x04, 0x5c, 0x2a, 0x3d, 
  0x6b, 0x18, 0x70, 0x3f, 0xec, 0x1d, 0xe1, 0xbf, 0x95, 0xb8, 0x71, 0x3e, 
  0x59, 0x0b, 0xa2, 0x3e, 0xb4, 0xf2, 0xe1, 0xbd, 0x5e, 0x3b, 0xfd, 0x3c, 
  0x32, 0x27, 0x4c, 0xbe, 0x79, 0xb7, 0x37, 0x3e, 0x30, 0x15, 0x05, 0x3b, 
  0x26, 0x2a, 0xf6, 0xbf, 0x26, 0x40, 0x91, 0xbe, 0x80, 0xb0, 0x26, 0x3f, 
  0x22, 0xee, 0x54, 0x3d, 0x07, 0x69, 0x0e, 0x3f, 0x4c, 0xa9, 0xdd, 0xbe, 
  0x26, 0xa3, 0x63, 0x3f, 0x36, 0xa0, 0xc8, 0xbe, 0x6c, 0x83, 0xff, 0xbb, 
  0xf4, 0xbc, 0x72, 0x3e, 0xa8, 0x78, 0xd9, 0x3d, 0xe2, 0xe3, 0xd2, 0xbd, 
  0xdc, 0xd2, 0x85, 0xbe, 0x18, 0xa4, 0xe0, 0x3d, 0x4c, 0xed, 0x06, 0xbd, 
  0xc8, 0xc4, 0x02, 0xbf, 0x22, 0x4f, 0x2e, 0xbe, 0xc6, 0x90, 0xb2, 0xbc, 
  0x4e, 0xcd, 0x36, 0x3f, 0x70, 0x54, 0xff, 0x3e, 0xfc, 0xd1, 0xe7, 0xbe, 
  0x54, 0x43, 0xa0, 0xbd, 0xcc, 0xe9, 0xfe, 0x3e, 0xbd, 0x7b, 0xc6, 0x3c, 
  0x40, 0x05, 0xde, 0x3d, 0x87, 0xac, 0xde, 0xbd, 0xbf, 0x9c, 0x3f, 0x3d, 
  0xfa, 0xcd, 0xec, 0xbd, 0xfe, 0x1e, 0xe7, 0xbc, 0x37, 0xb0, 0x40, 0xbd, 
  0x6c, 0x4d, 0x2a, 0xbf, 0xf7, 0xfd, 0xad, 0xbe, 0x17, 0x38, 0x23, 0xbf, 
  0x68, 0x3f, 0x2e, 0xbe, 0x29, 0xa7, 0x07, 0x3f, 0x88, 0xab, 0x32, 0x3f, 
  0x42, 0xed, 0x36, 0x3f, 0x18, 0x56, 0x32, 0x3e, 0x0c, 0x4a, 0xda, 0xbf, 
  0xec, 0x20, 0x27, 0xbe, 0x75, 0x76, 0x10, 0xbe, 0xf2, 0xba, 0x0a, 0x3e, 
  0x0a, 0xe8, 0x59, 0x3d, 0x4f, 0xdb, 0x42, 0x3e, 0xb8, 0x8a, 0xe9, 0xbd, 
  0xaf, 0x24, 0xb6, 0xbf, 0x2b, 0xc0, 0x9f, 0x3e, 0xf4, 0xe9, 0xc9, 0xbd, 
  0x8c, 0x6b, 0x53, 0xbd, 0x0f, 0x82, 0x11, 0x3f, 0x02, 0x4c, 0xee, 0xbc, 
  0xba, 0x04, 0x16, 0x3d, 0x5f, 0x83, 0x76, 0x3f, 0x82, 0xb0, 0x63, 0xbf, 
  0xb8, 0x4a, 0x13, 0x3e, 0xe4, 0xaa, 0xf9, 0x3c, 0xae, 0xd3, 0xa1, 0x3b, 
  0xba, 0x53, 0xa7, 0x3b, 0x7e, 0x1c, 0xf2, 0xbc, 0x18, 0x81, 0xc0, 0x3d, 
  0x70, 0x6a, 0x0e, 0xbd, 0x8a, 0x8a, 0x75, 0xbe, 0x5d, 0x18, 0x17, 0x3e, 
  0x52, 0x48, 0x78, 0xbf, 0xb8, 0x40, 0x34, 0x3f, 0x86, 0x4b, 0x80, 0x3f, 
  0x64, 0xa3, 0xc9, 0x3e, 0x7e, 0xbe, 0xdd, 0xbd, 0x5f, 0xe4, 0xaa, 0xbe, 
  0xe6, 0xc0, 0x6e, 0xbe, 0xdf, 0x25, 0x0b, 0xbe, 0xd9, 0x55, 0xa7, 0xbe, 
  0xa3, 0x0d, 0x0e, 0xbe, 0x8d, 0x13, 0x8c, 0xbe, 0xa1, 0x0b, 0x24, 0x3e, 
  0xf9, 0x6b, 0xdc, 0x3e, 0xc6, 0x76, 0x19, 0xbf, 0xa4, 0x0b, 0x62, 0xbf, 
  0xac, 0xa8, 0xb5, 0x3f, 0x0a, 0xe0, 0x23, 0x3f, 0x18, 0x5b, 0x85, 0x3f, 
  0xe8, 0x07, 0x8b, 0xbf, 0xed, 0x77, 0xd7, 0xbf, 0xdc, 0x7a, 0x1b, 0xbf, 
  0x9e, 0xa6, 0x6e, 0x3e, 0x2a, 0x19, 0x6e, 0x3e, 0x8f, 0xd7, 0x63, 0x3e, 
  0x8b, 0xa2, 0x67, 0xbd, 0x03, 0xac, 0x59, 0xbd, 0x3d, 0x11, 0xb8, 0xbd, 
  0x16, 0x83, 0x2f, 0x3f, 0xc2, 0x86, 0x2d, 0xbf, 0xfe, 0xb4, 0xde, 0xbf, 
  0x16, 0x05, 0x90, 0xbf, 0x32, 0x88, 0x8a, 0x3e, 0x09, 0xa0, 0x95, 0xbf, 
  0x2c, 0x7c, 0x89, 0x3f, 0x7a, 0xc5, 0xe1, 0xbd, 0x8d, 0x01, 0xaf, 0x3f, 
  0x3a, 0x27, 0xc0, 0xbd, 0x22, 0x8d, 0x50, 0x3e, 0xf6, 0xb0, 0x09, 0x3e, 
  0xcc, 0x83, 0x05, 0xbe, 0x5a, 0x35, 0x43, 0xbc, 0x39, 0xe5, 0xf3, 0xbd, 
  0xf4, 0xc9, 0xde, 0xbe, 0x98, 0x78, 0x9e, 0xbe, 0xe5, 0xf8, 0x82, 0x3d, 
  0xf3, 0x80, 0xb5, 0xbf, 0x47, 0x84, 0x83, 0x3f, 0x3d, 0x6b, 0x98, 0x3d, 
  0x50, 0xf5, 0x6d, 0x3e, 0xca, 0xac, 0x95, 0x3c, 0x30, 0x20, 0x18, 0xbe, 
  0x43, 0x60, 0xa3, 0xbe, 0xe2, 0xdf, 0xba, 0xbd, 0xbb, 0x77, 0x95, 0xbc, 
  0x87, 0xc2, 0x08, 0x3e, 0x55, 0x65, 0x5a, 0xbd, 0x02, 0xd9, 0xc2, 0xbc, 
  0xae, 0xc1, 0x18, 0xbe, 0x06, 0x32, 0xbb, 0xbe, 0x54, 0x71, 0xa1, 0xbe, 
  0x17, 0x80, 0xec, 0x3e, 0xf8, 0xaf, 0xde, 0x3e, 0xc9, 0x89, 0x98, 0xbd, 
  0xd7, 0xa2, 0xdc, 0xbd, 0xd7, 0x71, 0x8d, 0x3f, 0xc5, 0x81, 0x4c, 0xbe, 
  0xac, 0x5e, 0x28, 0x3e, 0x6d, 0x1a, 0x8e, 0xbd, 0x08, 0xae, 0x4b, 0x3d, 
  0xa4, 0x5e, 0x0a, 0xbd, 0xa1, 0x6d, 0x8a, 0xbd, 0x10, 0x44, 0xc7, 0x3d, 
  0xdb, 0x2d, 0xfe, 0xbd, 0x19, 0xf0, 0x63, 0xbe, 0xcd, 0x0f, 0xc2, 0x3c, 
  0xe3, 0x13, 0x99, 0xbf, 0x6a, 0x1b, 0x54, 0xbe, 0xbc, 0xc6, 0x78, 0xbf, 
  0xf8, 0xee, 0x94, 0x3d, 0x5e, 0x80, 0xe1, 0x3e, 0x02, 0x59, 0x2b, 0xbd, 
  0xd7, 0x60, 0x48, 0x3d, 0x49, 0x44, 0x94, 0x3d, 0xe2, 0x97, 0x98, 0xbd, 
  0xa1, 0xa8, 0xaa, 0x3d, 0xfa, 0x2c, 0x95, 0xbe, 0xe0, 0xf1, 0x12, 0x3d, 
  0x3c, 0x20, 0x3c, 0x3e, 0xa1, 0x0d, 0x0d, 0xbd, 0x35, 0xbb, 0xb1, 0xbf, 
  0x3a, 0xbf, 0x94, 0x3e, 0xa0, 0x43, 0xb1, 0xbe, 0x39, 0xab, 0xbb, 0x3f, 
  0x5b, 0x5b, 0x42, 0x3e, 0xc8, 0xdc, 0xe6, 0x3c, 0x72, 0xa2, 0x9d, 0xbf, 
  0xed, 0xc8, 0x87, 0xbd, 0x71, 0x47, 0xf4, 0x3c, 0x00, 0x26, 0x0e, 0xbe, 
  0x29, 0x1f, 0xb0, 0xbd, 0x5a, 0x0b, 0x00, 0x3e, 0x2e, 0x6a, 0x35, 0x3e, 
  0x57, 0xb4, 0xec, 0x3e, 0x7d, 0x7f, 0x0b, 0xbf, 0x84, 0x74, 0x3f, 0x3d, 
  0x2d, 0x62, 0xee, 0xbf, 0x22, 0x1f, 0xa6, 0xbe, 0x31, 0x50, 0x0e, 0x3f, 
  0xb0, 0xfb, 0xb7, 0x3e, 0x63, 0x91, 0x34, 0x3f, 0xae, 0xbf, 0x90, 0x3e, 
  0xe0, 0x8a, 0x41, 0x3d, 0xe4, 0xeb, 0x78, 0xbe, 0xc2, 0xf5, 0x48, 0xbd, 
  0x9b, 0x9a, 0x3e, 0x3d, 0x31, 0x28, 0x8f, 0x3e, 0xfa, 0x1b, 0x9d, 0xbd, 
  0x52, 0xa3, 0x36, 0x3f, 0x6b, 0x25, 0x88, 0xbf, 0x37, 0xb7, 0xd0, 0xbe, 
  0xb7, 0x7e, 0x33, 0xbe, 0x36, 0xdc, 0xa0, 0x3f, 0xec, 0x58, 0x12, 0x3f, 
  0xb0, 0xe9, 0x56, 0xbe, 0x2d, 0x54, 0x8f, 0xbf, 0x63, 0x51, 0x09, 0x3e, 
  0x86, 0xf5, 0xdd, 0x3d, 0x88, 0xc8, 0x65, 0x3e, 0x2a, 0x17, 0x3b, 0x3e, 
  0x1e, 0x03, 0xb8, 0x3c, 0x74, 0x77, 0x95, 0xbd, 0x2b, 0xbf, 0x87, 0xbc, 
  0x90, 0xab, 0x80, 0xbf, 0x6e, 0xb5, 0xdc, 0x3e, 0x95, 0x6d, 0x70, 0x3e, 
  0x2a, 0x84, 0x48, 0x3f, 0x33, 0x86, 0x19, 0x3d, 0x34, 0xb0, 0x32, 0x3f, 
  0x35, 0xd6, 0x55, 0xbf, 0xa5, 0x2c, 0xd5, 0xbe, 0x67, 0xd3, 0x01, 0x3e, 
  0xa5, 0x1e, 0xf2, 0xbe, 0x4c, 0x08, 0x6a, 0x3e, 0xe9, 0xc5, 0x0a, 0xbe, 
  0xb0, 0xb5, 0x8b, 0x3c, 0x8b, 0x3e, 0x66, 0xbd, 0x27, 0x38, 0xc3, 0xbd, 
  0xce, 0x9d, 0x4e, 0x3f, 0xf9, 0xd4, 0x48, 0xbf, 0x99, 0x79, 0x08, 0xbf, 
  0x79, 0x9d, 0xee, 0x3e, 0x0e, 0xa2, 0x6e, 0x3f, 0xe0, 0xbf, 0x8f, 0xbf, 
  0xd0, 0xc9, 0x07, 0xbf, 0xd0, 0x5a, 0x84, 0xbe, 0x36, 0xbb, 0x3c, 0x3f, 
  0x9c, 0x19, 0x88, 0x3d, 0x28, 0x26, 0x82, 0xbe, 0x95, 0x7e, 0x2c, 0xbe, 
  0xf6, 0x8f, 0x41, 0x3e, 0x08, 0xd8, 0x58, 0x3e, 0x67, 0xd7, 0xd0, 0xbd, 
  0x8b, 0xec, 0x9c, 0xbf, 0xfa, 0x3a, 0xbf, 0xbe, 0xef, 0x39, 0x06, 0xbe, 
  0x0c, 0xd7, 0x13, 0x3f, 0xc8, 0x82, 0x8d, 0xbf, 0x12, 0x7c, 0x2b, 0x3f, 
  0x1c, 0x30, 0x81, 0x3f, 0xdc, 0x94, 0x02, 0xbf, 0x2b, 0xb1, 0x85, 0xbe, 
  0x31, 0xaa, 0x76, 0x3e, 0x8f, 0x49, 0xb2, 0x3b, 0xac, 0x95, 0x94, 0x3c, 
  0x07, 0x6b, 0xf0, 0xbe, 0xee, 0xc6, 0xb2, 0xbe, 0x84, 0x3e, 0x11, 0xbe, 
  0x74, 0x41, 0x9f, 0x3d, 0xe7, 0xc3, 0x97, 0xbf, 0xc4, 0x55, 0xf4, 0xbe, 
  0xaf, 0x26, 0x0e, 0x3f, 0x67, 0x79, 0xc3, 0x3f, 0x72, 0x77, 0x45, 0x3e, 
  0x4f, 0x22, 0x12, 0xbe, 0x59, 0x57, 0xed, 0xbf, 0x0c, 0x00, 0xdc, 0x3e, 
  0x1b, 0x4d, 0x69, 0x3e, 0x23, 0x0a, 0xd5, 0xbd, 0x06, 0x97, 0x9a, 0xbd, 
  0xe1, 0x49, 0x56, 0xbc, 0xe4, 0x32, 0x31, 0x3e, 0x56, 0x5f, 0x4c, 0xbd, 
  0x44, 0xb6, 0x2d, 0xbd, 0x4b, 0x08, 0x13, 0xbe, 0x70, 0xed, 0xb9, 0xbd, 
  0x59, 0x6c, 0x8c, 0xbf, 0xe6, 0x6f, 0x1a, 0x3f, 0x0f, 0xf3, 0x2d, 0x3f, 
  0xf9, 0x91, 0xaf, 0x3f, 0xe2, 0x5f, 0x2a, 0xbf, 0xec, 0x0e, 0xa0, 0xbd, 
  0x31, 0x72, 0x14, 0x3e, 0x0f, 0xf1, 0x5e, 0x3d, 0x75, 0xe0, 0x27, 0xbe, 
  0x44, 0xe0, 0x85, 0xbe, 0xd7, 0xe3, 0xd7, 0x3c, 0xcd, 0xbd, 0x68, 0xbc, 
  0xe2, 0x75, 0x32, 0x3e, 0x51, 0xb8, 0x80, 0xbd, 0xe8, 0x45, 0xe0, 0xba, 
  0x50, 0xe2, 0x45, 0x3f, 0xd5, 0x77, 0xa2, 0xbf, 0xdd, 0xb8, 0x66, 0x3d, 
  0x14, 0x5f, 0x46, 0x3e, 0xd8, 0x37, 0x6c, 0x3e, 0x0a, 0xf9, 0x8f, 0x3e, 
  0xe2, 0xce, 0x0d, 0xbf, 0x91, 0x98, 0x06, 0xbc, 0xee, 0x2c, 0x83, 0x3d, 
  0xaa, 0x2b, 0xaa, 0x3c, 0xda, 0xcc, 0x03, 0xbd, 0x64, 0xe4, 0xaa, 0x3e, 
  0x85, 0x3d, 0x80, 0x3f, 0x0f, 0x16, 0xac, 0x3e, 0xe9, 0xf4, 0x58, 0xbe, 
  0xfb, 0xf8, 0xa5, 0x3e, 0xcf, 0x86, 0x43, 0xbf, 0x00, 0xac, 0x7e, 0xbf, 
  0x3f, 0x6b, 0x27, 0xbf, 0xbe, 0xce, 0x0c, 0xbf, 0x3a, 0x27, 0xdd, 0x3e, 
  0x9f, 0xe0, 0xb0, 0x3e, 0xec, 0xdc, 0x0d, 0xbf, 0x09, 0xb6, 0x4b, 0x3d, 
  0x74, 0x4a, 0xba, 0x3d, 0xc5, 0x42, 0xf9, 0xbd, 0xd3, 0x51, 0x5a, 0xbe, 
  0x06, 0x30, 0x8a, 0x3f, 0x3e, 0x18, 0xb7, 0x3e, 0xa1, 0x3e, 0x80, 0x3e, 
  0xb1, 0xaf, 0x8b, 0xbf, 0xb1, 0x2a, 0xe2, 0x3e, 0x4a, 0x20, 0xfc, 0x3e, 
  0x51, 0x91, 0x81, 0xbe, 0xf3, 0x98, 0x94, 0xbe, 0xc6, 0x0b, 0x86, 0xbe, 
  0xc8, 0xac, 0xf7, 0x3d, 0x01, 0xb9, 0xb3, 0x3d, 0xd9, 0xbb, 0x4d, 0xbc, 
  0x0b, 0xa7, 0x26, 0xba, 0x35, 0xa7, 0x4d, 0x3e, 0x06, 0xb6, 0xdb, 0x3d, 
  0xe8, 0x2f, 0x53, 0xbd, 0x0f, 0x47, 0x5d, 0x3d, 0x5c, 0x60, 0xa1, 0xbf, 
  0x02, 0x60, 0x22, 0x3f, 0x92, 0xcc, 0xc2, 0x3d, 0x21, 0x41, 0x07, 0xbe, 
  0x5b, 0xfc, 0xf5, 0x3c, 0xb7, 0x87, 0x14, 0xbe, 0x4c, 0x95, 0xa0, 0xbf, 
  0xaf, 0xab, 0x54, 0x3e, 0x4c, 0x9c, 0x1a, 0xbf, 0x9b, 0x14, 0xdb, 0xbd, 
  0xcb, 0x0d, 0xcd, 0xbd, 0x95, 0x5c, 0xf4, 0x3e, 0xb6, 0xe4, 0x47, 0x3e, 
  0xac, 0x37, 0x7c, 0xbf, 0xeb, 0xac, 0x74, 0xbe, 0x71, 0x84, 0xe8, 0x3d, 
  0x3a, 0xf0, 0xad, 0x3e, 0xa8, 0x44, 0x69, 0x3e, 0x88, 0x32, 0x53, 0x3e, 
  0x2a, 0xf2, 0x9c, 0xbf, 0x8c, 0x21, 0xdc, 0x3d, 0xa1, 0x51, 0x03, 0xbf, 
  0x05, 0xc7, 0x84, 0xbd, 0x45, 0xef, 0x9e, 0xbd, 0x37, 0x75, 0x3e, 0xbd, 
  0xe1, 0x75, 0x11, 0x3e, 0x30, 0x9e, 0x17, 0x3d, 0xb4, 0xcf, 0x24, 0xbc, 
  0x04, 0xfd, 0x5f, 0x3e, 0xfb, 0x7a, 0xde, 0xbb, 0x93, 0xd3, 0x5e, 0xbe, 
  0x93, 0x3e, 0x1c, 0x3f, 0x44, 0xe8, 0x09, 0x3f, 0x22, 0x4e, 0x01, 0xbf, 
  0xb4, 0x12, 0x9c, 0xbf, 0x5f, 0x22, 0x39, 0x3f, 0xc1, 0x16, 0x74, 0x3e, 
  0x5f, 0x48, 0xc1, 0x3e, 0x01, 0x3b, 0xab, 0xbd, 0x6b, 0x71, 0x9f, 0xbb, 
  0x64, 0xa9, 0x4e, 0xbc, 0xa4, 0x7d, 0x9d, 0xbe, 0x9d, 0xb3, 0x04, 0xbe, 
  0xaf, 0xc1, 0xb3, 0xbb, 0x86, 0x1b, 0xaa, 0xbf, 0x8d, 0xa3, 0x12, 0xbe, 
  0xd7, 0xd3, 0xc1, 0xbe, 0x50, 0x23, 0xb8, 0xbf, 0xae, 0xa1, 0x16, 0x3f, 
  0x17, 0xf9, 0x3a, 0x3f, 0xfb, 0xd8, 0x8c, 0xbf, 0x88, 0x2d, 0x4e, 0x3f, 
  0xd5, 0xd5, 0xc1, 0xbd, 0x0a, 0xf2, 0xa3, 0xbd, 0x23, 0x8b, 0x2d, 0x3c, 
  0xd3, 0x84, 0x10, 0x3e, 0xf3, 0xc0, 0x65, 0x3d, 0xe2, 0xa9, 0x80, 0x3c, 
  0x89, 0xb5, 0xda, 0x3e, 0x14, 0x6b, 0xfc, 0xbe, 0x3d, 0xf8, 0x9c, 0xbf, 
  0x78, 0x6f, 0x07, 0x3e, 0x42, 0x44, 0x80, 0xbf, 0xfc, 0x34, 0xbb, 0x3e, 
  0x26, 0xd5, 0xbf, 0xbe, 0x2f, 0x44, 0x15, 0xbf, 0x58, 0x7e, 0x2f, 0x3f, 
  0x91, 0x66, 0x97, 0x3e, 0xee, 0x4c, 0xd8, 0x3d, 0xb0, 0x46, 0xc2, 0x3b, 
  0xa3, 0xb2, 0x56, 0xbd, 0x35, 0x12, 0x04, 0x3e, 0x13, 0xe6, 0x94, 0x3d, 
  0xf1, 0x0e, 0xbd, 0xbf, 0x56, 0xca, 0xad, 0xbf, 0x55, 0x05, 0xf3, 0xbe, 
  0x92, 0x2f, 0x05, 0x3d, 0x1f, 0x8f, 0xb1, 0x3f, 0xaa, 0xf5, 0x58, 0x3e, 
  0xc5, 0xb3, 0x0f, 0xbf, 0xb8, 0x91, 0x22, 0x3b, 0x65, 0x78, 0x63, 0x3e, 
  0x8f, 0xd0, 0xc0, 0x3d, 0xdf, 0xf7, 0x70, 0xbd, 0xf1, 0xcf, 0x99, 0x3d, 
  0xce, 0xbb, 0x0e, 0x3e, 0xcc, 0x56, 0x15, 0xbd, 0x5a, 0x9b, 0x85, 0xbd, 
  0x1a, 0xf5, 0xff, 0xff, 0x04, 0x00, 0x00, 0x00, 0x80, 0x00, 0x00, 0x00, 
  0x4b, 0x9a, 0xc2, 0xbf, 0xb0, 0xb9, 0xb7, 0xbe, 0xde, 0x5f, 0xf1, 0xbc, 
  0x08, 0x0b, 0x02, 0xc0, 0xe0, 0xe7, 0x87, 0xbe, 0xd8, 0x39, 0xbc, 0xbe, 
  0xc0, 0x04, 0x13, 0x3f, 0x04, 0xc3, 0xa0, 0xbe, 0x87, 0x6d, 0x29, 0xbf, 
  0x0e, 0xba, 0xe6, 0xbb, 0x22, 0x09, 0xb8, 0xbe, 0xa3, 0x65, 0xe7, 0xbe, 
  0x36, 0x12, 0x6b, 0xbf, 0x41, 0x45, 0xdc, 0x3e, 0x48, 0xb2, 0xb0, 0xbf, 
  0x2e, 0xfe, 0x16, 0xbf, 0x2a, 0xd2, 0x46, 0xbf, 0x56, 0xd8, 0x1c, 0xbf, 
  0x04, 0xe7, 0x02, 0xbe, 0xaa, 0x85, 0x9b, 0xbe, 0x8f, 0xa6, 0x1c, 0xbf, 
  0xfe, 0x27, 0x74, 0xbf, 0xfe, 0x0e, 0x2d, 0xbe, 0x8f, 0x4d, 0x4e, 0xbf, 
  0x46, 0x1c, 0x92, 0xbf, 0x2f, 0xe4, 0x5e, 0xbd, 0x21, 0xab, 0xac, 0xbf, 
  0xd9, 0x71, 0xb3, 0xbf, 0x99, 0x4d, 0x3b, 0xbb, 0x74, 0x58, 0xd1, 0xbf, 
  0x19, 0xd1, 0x91, 0xbf, 0xe6, 0xc4, 0xad, 0xbf, 0xa6, 0xf5, 0xff, 0xff, 
  0x04, 0x00, 0x00, 0x00, 0x40, 0x00, 0x00, 0x00, 0xc2, 0x65, 0x53, 0x3f, 
  0x7d, 0x3d, 0x48, 0x3f, 0x16, 0x22, 0x81, 0x3f, 0xbd, 0x94, 0xa6, 0xbe, 
  0x34, 0x50, 0xf3, 0x3e, 0xc9, 0x77, 0xd9, 0x3e, 0x60, 0x12, 0x2c, 0x3e, 
  0x6d, 0xd3, 0x3d, 0x3d, 0x37, 0xc0, 0x01, 0x3f, 0x60, 0x33, 0xb1, 0x3e, 
  0xba, 0x73, 0x76, 0x3f, 0x05, 0xce, 0x12, 0xbf, 0xbf, 0xd7, 0xd9, 0x3e, 
  0xa7, 0x21, 0x4b, 0xbe, 0xed, 0x84, 0x07, 0x3f, 0xd5, 0xfc, 0x35, 0x3f, 
  0xf2, 0xf5, 0xff, 0xff, 0x04, 0x00, 0x00, 0x00, 0x14, 0x00, 0x00, 0x00, 
  0xef, 0xf1, 0xab, 0xbf, 0x7f, 0x5c, 0x32, 0x3d, 0x99, 0xe0, 0x65, 0x3f, 
  0x26, 0x3d, 0x6d, 0x3d, 0x1b, 0xef, 0x43, 0x3f, 0x12, 0xf6, 0xff, 0xff, 
  0x04, 0x00, 0x00, 0x00, 0x00, 0x08, 0x00, 0x00, 0x48, 0x6e, 0x86, 0xbe, 
  0x59, 0x21, 0x20, 0x3e, 0xd7, 0x4b, 0x0a, 0xbd, 0xbc, 0xdd, 0x86, 0x3f, 
  0x24, 0x5f, 0xbd, 0xbc, 0x2a, 0x0b, 0x19, 0x3d, 0x57, 0x31, 0xeb, 0x3d, 
  0x54, 0xe1, 0x26, 0x3c, 0x26, 0x88, 0xab, 0xbd, 0x08, 0xa9, 0x9b, 0xbe, 
  0xd5, 0x60, 0xb2, 0xbe, 0x3d, 0xe8, 0x1f, 0x3f, 0x5d, 0xe8, 0x08, 0x3e, 
  0x80, 0x45, 0x1c, 0xbd, 0x05, 0x0a, 0x4e, 0xbf, 0x55, 0x1b, 0x8c, 0x3f, 
  0x14, 0xdf, 0x2c, 0xbf, 0xd8, 0x48, 0xea, 0xbf, 0x71, 0x05, 0x00, 0xbe, 
  0xda, 0x0a, 0x9f, 0xbf, 0x1d, 0xf2, 0x61, 0x3e, 0x4b, 0x27, 0x3b, 0xbf, 
  0xdd, 0x89, 0xe7, 0x3e, 0xea, 0x27, 0xde, 0x3e, 0xf2, 0x1e, 0x4f, 0xbf, 
  0x41, 0x60, 0xd7, 0xbf, 0x48, 0x6c, 0xee, 0xbf, 0x70, 0x13, 0x3a, 0x3f, 
  0xbe, 0x9d, 0xd2, 0xbd, 0x7d, 0x05, 0x31, 0x3f, 0x1b, 0x23, 0x34, 0xbf, 
  0x2f, 0x6d, 0xca, 0xbd, 0x28, 0x2f, 0x7e, 0xbd, 0x09, 0xd0, 0xd5, 0x3d, 
  0xfc, 0x0e, 0x97, 0xbd, 0xc6, 0xf6, 0x9b, 0xc0, 0x04, 0x59, 0x01, 0x3f, 
  0x12, 0x1e, 0x47, 0x3c, 0x31, 0x0f, 0x7e, 0x3e, 0x4e, 0xf3, 0x06, 0xbf, 
  0xf4, 0x86, 0xe6, 0xbe, 0x9c, 0xd7, 0x50, 0x3e, 0x85, 0xf2, 0xf6, 0x3e, 
  0x7f, 0x3c, 0x8e, 0xbe, 0xfd, 0x7f, 0x7d, 0xbe, 0x3c, 0xc0, 0xab, 0x3e, 
  0x07, 0x03, 0x6d, 0xbf, 0xdb, 0x4b, 0x9a, 0xbf, 0x6f, 0x54, 0x6c, 0x3f, 
  0xe6, 0xd3, 0x64, 0xbc, 0xb3, 0xf7, 0x16, 0x3d, 0xcd, 0x6d, 0xed, 0xbf, 
  0xff, 0xea, 0x57, 0x3f, 0xdc, 0xf0, 0x00, 0x40, 0x9e, 0x20, 0x66, 0x3f, 
  0x5e, 0x56, 0xc2, 0xbd, 0xbe, 0xd1, 0xc6, 0xbe, 0x15, 0x05, 0x05, 0xbe, 
  0x73, 0xb7, 0x81, 0xbf, 0xc7, 0xc8, 0xb4, 0xbf, 0x5e, 0x82, 0xc7, 0x3e, 
  0x2d, 0xaa, 0x42, 0x3f, 0x55, 0x97, 0x39, 0xbf, 0x52, 0x1e, 0x4e, 0xbe, 
  0x9d, 0x0b, 0x16, 0xbe, 0xb9, 0x06, 0xab, 0x3e, 0x78, 0x79, 0x53, 0x3e, 
  0xb7, 0x3b, 0x26, 0x3f, 0x34, 0x2c, 0x0b, 0xbd, 0x77, 0xd6, 0x74, 0x3d, 
  0xd2, 0xf9, 0x05, 0x3e, 0x69, 0x75, 0x2d, 0x3f, 0x10, 0x6b, 0x4f, 0x3e, 
  0x3e, 0xc0, 0x9c, 0xbe, 0x43, 0xc9, 0x32, 0xbc, 0x12, 0x19, 0xf7, 0xbe, 
  0x6b, 0x0d, 0x38, 0x3e, 0x1c, 0x01, 0x06, 0x3e, 0x95, 0xdc, 0x79, 0x3f, 
  0x2d, 0xe3, 0x80, 0x3e, 0x97, 0x80, 0x04, 0xbd, 0xdc, 0x22, 0x06, 0xbe, 
  0x2d, 0x32, 0x91, 0x3e, 0x6a, 0x9f, 0x14, 0xbf, 0xe1, 0xb0, 0xc4, 0x3e, 
  0x42, 0x9d, 0x33, 0xbf, 0x7f, 0x92, 0xd3, 0xbf, 0x47, 0x1f, 0x9e, 0xbf, 
  0x48, 0xe5, 0xe2, 0xbe, 0xa9, 0x9e, 0x1a, 0xbe, 0x8c, 0xf0, 0xa6, 0xbd, 
  0x75, 0xea, 0x40, 0x3f, 0xa0, 0x56, 0xf1, 0x3e, 0xeb, 0x34, 0x4b, 0xbf, 
  0x55, 0xa9, 0x01, 0xbf, 0xc4, 0x2c, 0x04, 0x3f, 0x66, 0xa3, 0x31, 0x3f, 
  0xc7, 0xa4, 0xec, 0x3f, 0x0e, 0x14, 0x9a, 0xbe, 0xd4, 0x39, 0xd0, 0x3f, 
  0x77, 0xb7, 0xc2, 0xbd, 0xb7, 0x10, 0x37, 0xbe, 0x22, 0x3d, 0x8b, 0xbd, 
  0x82, 0x38, 0x38, 0x3f, 0x9a, 0x4f, 0x14, 0x3f, 0xc7, 0xb3, 0xf6, 0x3d, 
  0xbd, 0x1b, 0xb0, 0x3d, 0x5d, 0x4f, 0x12, 0x3d, 0xd9, 0xab, 0x16, 0x3e, 
  0x60, 0x99, 0xb2, 0x3b, 0x57, 0x34, 0x93, 0x3f, 0x55, 0x04, 0x3b, 0x3e, 
  0x23, 0xaf, 0x9a, 0x3f, 0x45, 0x53, 0xc3, 0xbe, 0x1a, 0x7e, 0x15, 0x3f, 
  0x40, 0x95, 0x82, 0xbe, 0xde, 0x1b, 0x05, 0x3d, 0x3f, 0x55, 0x6e, 0xbf, 
  0x90, 0xf3, 0xae, 0xbc, 0x13, 0xed, 0x30, 0x3f, 0x18, 0x33, 0x0e, 0x3f, 
  0x4a, 0xda, 0xed, 0xbe, 0xf9, 0xc6, 0x08, 0x3f, 0x11, 0xf4, 0x0a, 0x40, 
  0x29, 0x56, 0x69, 0xbe, 0x9e, 0x44, 0xb0, 0x3f, 0x21, 0xba, 0x36, 0x3f, 
  0xb4, 0x36, 0x40, 0x3f, 0x07, 0xd8, 0x46, 0x3f, 0x25, 0x56, 0xf9, 0xbe, 
  0x0c, 0x6b, 0x0c, 0x3f, 0xa9, 0xb4, 0x9b, 0xbf, 0x8b, 0xe7, 0xae, 0xbe, 
  0xd4, 0x22, 0xd6, 0xbe, 0x51, 0xaa, 0xd0, 0xbd, 0x1d, 0x54, 0x8c, 0xbd, 
  0xad, 0x8b, 0x28, 0xbf, 0xd5, 0x6f, 0xb5, 0xbe, 0xf8, 0x37, 0x33, 0x3d, 
  0x15, 0xe6, 0x26, 0x3f, 0xad, 0x1a, 0x2d, 0xbf, 0x81, 0x5a, 0xfe, 0xbd, 
  0xb7, 0x1a, 0xfd, 0x3f, 0x94, 0x84, 0xbe, 0x3d, 0x01, 0x15, 0x7d, 0x3f, 
  0x49, 0x30, 0x7d, 0x3d, 0x3e, 0x58, 0x71, 0x3f, 0x43, 0xf8, 0xd4, 0x3e, 
  0xf2, 0x87, 0x47, 0x3e, 0x0c, 0xfb, 0x16, 0x3f, 0x82, 0xfa, 0xa7, 0x3d, 
  0x90, 0x2d, 0x59, 0xbe, 0x2b, 0xde, 0xb6, 0x3e, 0xbf, 0x2e, 0xaa, 0xbe, 
  0xca, 0x1b, 0x3e, 0x3f, 0x53, 0x66, 0x05, 0x3f, 0xd6, 0x20, 0xe5, 0xbd, 
  0xd2, 0xe2, 0x0b, 0xc0, 0x70, 0xda, 0x35, 0xbf, 0xef, 0x65, 0x2d, 0xbe, 
  0x83, 0x0e, 0x12, 0xbe, 0x81, 0x86, 0x3e, 0xbf, 0x69, 0xce, 0x06, 0x3f, 
  0x19, 0xf3, 0x96, 0xbf, 0x35, 0xbb, 0x80, 0xbd, 0xcc, 0x80, 0x41, 0xbe, 
  0xf8, 0xd8, 0x32, 0x3e, 0xab, 0xda, 0xe0, 0x3e, 0xea, 0xad, 0x23, 0x3f, 
  0xe2, 0x05, 0xa8, 0xbe, 0xdf, 0x96, 0x86, 0x3d, 0xfc, 0x15, 0x3e, 0x3f, 
  0x1f, 0xec, 0x03, 0x3f, 0x10, 0x00, 0x21, 0x3d, 0xe5, 0x8e, 0x9b, 0x3e, 
  0x71, 0x25, 0x3d, 0xbc, 0xd1, 0xe9, 0x48, 0xc0, 0xc8, 0xba, 0x8d, 0x3e, 
  0x07, 0xb7, 0x9c, 0xbe, 0xec, 0x16, 0xfe, 0x3d, 0x17, 0x44, 0x9a, 0x3f, 
  0x4f, 0xd8, 0xd1, 0xbe, 0x39, 0x1f, 0x06, 0x3f, 0x37, 0x15, 0x1a, 0x3f, 
  0xa7, 0x7f, 0x11, 0x3f, 0x44, 0x53, 0x55, 0x3f, 0x53, 0x67, 0x10, 0x3e, 
  0xe3, 0x63, 0xd3, 0x3d, 0xe1, 0xc0, 0x08, 0xbd, 0x6a, 0xdd, 0x20, 0xbf, 
  0x22, 0x7d, 0xe4, 0x3e, 0x23, 0x7d, 0x30, 0x3f, 0x6b, 0xf4, 0x27, 0xbe, 
  0xa3, 0x0d, 0x05, 0xc0, 0x47, 0x39, 0xbd, 0xbe, 0x88, 0xb0, 0xdb, 0x3d, 
  0xad, 0x02, 0x9a, 0x3d, 0x57, 0x26, 0x3f, 0xbf, 0x2d, 0x19, 0x8d, 0x3c, 
  0x0f, 0xbd, 0x4b, 0x3f, 0x6b, 0xaa, 0x46, 0x3f, 0xa3, 0xf0, 0x54, 0xbf, 
  0x04, 0x04, 0xd9, 0xbf, 0x37, 0xc5, 0x64, 0x3e, 0xd5, 0x6c, 0x08, 0x3e, 
  0x0d, 0x38, 0x38, 0xbe, 0xc7, 0x57, 0xba, 0x3d, 0x5b, 0x0a, 0x21, 0xbe, 
  0x68, 0x77, 0x04, 0xbe, 0xbe, 0xa4, 0x1c, 0xbf, 0xe0, 0xeb, 0x66, 0xbf, 
  0xd6, 0xc3, 0xc0, 0xbf, 0xb3, 0x70, 0x4f, 0x3f, 0x83, 0x3e, 0x03, 0xc0, 
  0x55, 0x1e, 0x0f, 0xc0, 0x04, 0x0b, 0x5e, 0xbf, 0x2e, 0xab, 0x7d, 0x3e, 
  0x15, 0x15, 0x28, 0x3f, 0x53, 0xb7, 0x32, 0xbe, 0xeb, 0x3a, 0x97, 0x3e, 
  0x7b, 0xaa, 0x1d, 0x3e, 0xe3, 0x6b, 0x9c, 0xbe, 0xc3, 0x33, 0x19, 0xc0, 
  0xa6, 0xcf, 0x69, 0xbc, 0xa9, 0x76, 0x19, 0x3f, 0xc7, 0xd6, 0xeb, 0x3e, 
  0x91, 0x32, 0x76, 0x3e, 0x06, 0xb2, 0xe0, 0x3f, 0xe8, 0x84, 0xb8, 0x3e, 
  0x4c, 0x02, 0xab, 0xbe, 0x05, 0xf8, 0x58, 0xbf, 0x9c, 0xe1, 0x15, 0x3f, 
  0xe5, 0x17, 0xb3, 0xbf, 0x36, 0xfb, 0x73, 0x3d, 0x16, 0xb5, 0x8d, 0x3e, 
  0x78, 0x7f, 0x88, 0xbe, 0xa8, 0xe3, 0x1b, 0xbc, 0x13, 0xe7, 0x1f, 0xc0, 
  0x67, 0xa0, 0x74, 0xbe, 0x82, 0x5c, 0x07, 0xbf, 0xb3, 0x45, 0x1c, 0xbf, 
  0xff, 0xaa, 0xbe, 0xbe, 0xf5, 0xa9, 0x7d, 0x3e, 0x61, 0x16, 0xfd, 0xbe, 
  0xd3, 0x27, 0xb0, 0x3e, 0x23, 0xf6, 0xba, 0x3d, 0xa3, 0x9a, 0xea, 0x3e, 
  0xad, 0xce, 0x06, 0x3f, 0xf0, 0x77, 0x79, 0xbf, 0x06, 0x35, 0xe1, 0x3d, 
  0xf1, 0x25, 0x7a, 0xbd, 0xf7, 0xb3, 0xd2, 0x3e, 0x51, 0xf4, 0x25, 0xc0, 
  0x72, 0x44, 0x2e, 0x3f, 0x84, 0xce, 0x71, 0xbe, 0x4e, 0xaa, 0x1a, 0x3f, 
  0x1f, 0xf2, 0x1a, 0x40, 0xc4, 0x7b, 0xa6, 0x3f, 0xfd, 0x6e, 0xbb, 0xbe, 
  0x6a, 0x1c, 0xcf, 0xbc, 0xb3, 0xe9, 0xb0, 0x3f, 0x54, 0x73, 0x61, 0xbf, 
  0x41, 0xbc, 0xd1, 0xbc, 0x32, 0x06, 0x77, 0x3d, 0x0b, 0xe7, 0x04, 0xbe, 
  0xbc, 0xc0, 0x85, 0x3f, 0xaa, 0xf7, 0x89, 0x3f, 0x0d, 0xc8, 0x2d, 0x3d, 
  0x08, 0x43, 0xba, 0x3f, 0x17, 0x72, 0xd9, 0xbc, 0xe6, 0xf9, 0x03, 0x40, 
  0x94, 0x21, 0x99, 0x3e, 0xff, 0x20, 0x10, 0xc0, 0xf2, 0x95, 0x5b, 0x3f, 
  0xbf, 0xe1, 0x7f, 0x3f, 0xe2, 0xf0, 0xd7, 0x3d, 0x46, 0x43, 0x04, 0x3f, 
  0xa4, 0xa6, 0xc9, 0x3e, 0x82, 0x12, 0x41, 0x3f, 0x8b, 0x7e, 0x31, 0xbe, 
  0x44, 0xe2, 0x9c, 0x3f, 0x9a, 0x5a, 0x81, 0x3f, 0x93, 0x69, 0x4a, 0xbe, 
  0xf1, 0x7a, 0xa9, 0x3f, 0x81, 0x50, 0x65, 0x3d, 0x61, 0xf7, 0x91, 0x3e, 
  0x68, 0xef, 0x12, 0xbf, 0x14, 0xbd, 0x21, 0x40, 0x43, 0x3a, 0x06, 0x3f, 
  0x48, 0x35, 0xa5, 0xbe, 0x4c, 0x9d, 0x51, 0x3e, 0x6a, 0xf6, 0x98, 0x3f, 
  0xd8, 0xd7, 0xa5, 0x3e, 0x80, 0xec, 0xb3, 0xbe, 0x89, 0xac, 0x3b, 0x3d, 
  0x94, 0x59, 0xa4, 0x3f, 0x59, 0xfc, 0x33, 0x3e, 0x7a, 0x7d, 0x16, 0x3e, 
  0x21, 0x7d, 0x4a, 0x3f, 0xcf, 0x57, 0xed, 0x3f, 0x2a, 0x01, 0xee, 0x3d, 
  0x7d, 0xa0, 0x77, 0xbe, 0x98, 0x06, 0x18, 0x3f, 0x0c, 0x29, 0xcd, 0x3f, 
  0x2c, 0xca, 0x2f, 0xbe, 0xac, 0xab, 0xb9, 0xbe, 0xce, 0xaa, 0xbf, 0x3c, 
  0x12, 0x75, 0x32, 0x3d, 0x80, 0x7a, 0x3a, 0x3e, 0xb0, 0x86, 0xa5, 0x3d, 
  0x6c, 0x7d, 0x91, 0x3e, 0xad, 0xd6, 0x0f, 0xbe, 0x74, 0x28, 0x07, 0xbf, 
  0xfb, 0xdc, 0x25, 0xbf, 0x36, 0x7f, 0x1c, 0xbf, 0x9b, 0x8e, 0x34, 0xbf, 
  0xe2, 0x60, 0xa8, 0x3e, 0xf9, 0xf9, 0x3e, 0x3e, 0x2e, 0xc4, 0xdd, 0x3f, 
  0xde, 0xc1, 0xd6, 0x3f, 0xef, 0xe3, 0x1f, 0xbf, 0x57, 0x7e, 0x89, 0xc0, 
  0x9e, 0x68, 0xbc, 0x3e, 0xb8, 0x1f, 0x02, 0x40, 0x5a, 0x7b, 0x2c, 0xbf, 
  0x5c, 0x22, 0x96, 0xbf, 0x46, 0xf5, 0x1f, 0x3e, 0xc8, 0xe9, 0xa5, 0xbe, 
  0x82, 0xe7, 0xca, 0xbc, 0x0e, 0x63, 0x14, 0xbe, 0x3b, 0x5a, 0x03, 0xbf, 
  0x3f, 0x46, 0xbe, 0x3d, 0x6c, 0x49, 0x93, 0xbe, 0x9e, 0xb7, 0xd4, 0x3e, 
  0x1d, 0xde, 0x14, 0xbe, 0x10, 0x7a, 0x6c, 0x3f, 0xbd, 0xff, 0x2f, 0xc0, 
  0x7d, 0xb5, 0x63, 0x3c, 0xac, 0xc4, 0x43, 0xbf, 0x59, 0x07, 0x05, 0x3f, 
  0x7f, 0xec, 0xd5, 0xbc, 0x33, 0xa9, 0xa2, 0x3f, 0x23, 0x32, 0x68, 0xbe, 
  0x69, 0xa7, 0xbf, 0xbe, 0x88, 0x9b, 0x5a, 0xbe, 0xfb, 0x5b, 0x1a, 0x3e, 
  0x59, 0x59, 0x26, 0x3f, 0x32, 0x0d, 0x4e, 0xc0, 0x5b, 0x56, 0x1f, 0x3c, 
  0x21, 0xe2, 0xfd, 0xbf, 0x06, 0x01, 0x94, 0xbe, 0xbb, 0x6f, 0x8a, 0xbf, 
  0xa1, 0xcc, 0x74, 0xbe, 0x7c, 0xf4, 0x00, 0xbe, 0x90, 0x9d, 0x86, 0x3d, 
  0xe0, 0x84, 0x55, 0x40, 0xfb, 0x80, 0x9d, 0xbb, 0x4f, 0x08, 0xb0, 0xba, 
  0x2f, 0xb1, 0x34, 0xc0, 0x69, 0x0d, 0xa9, 0x3e, 0x2a, 0x58, 0x0d, 0xbf, 
  0x1d, 0x3d, 0xd7, 0x3e, 0x3d, 0x25, 0xf2, 0x3d, 0xd0, 0x07, 0x8b, 0x3f, 
  0xad, 0xca, 0x93, 0x3f, 0x47, 0x91, 0x19, 0xc0, 0xc7, 0xd7, 0x0c, 0x3f, 
  0x4d, 0x04, 0xf0, 0x3f, 0x91, 0x88, 0xdf, 0x3e, 0x9e, 0x35, 0xeb, 0x3e, 
  0x02, 0x07, 0x27, 0xbd, 0x30, 0x42, 0x6d, 0x3e, 0x54, 0xc0, 0x1a, 0xbf, 
  0x3a, 0xc6, 0xaa, 0x3c, 0xc7, 0x7a, 0xdf, 0xbe, 0xe0, 0xe1, 0x5c, 0x3d, 
  0xff, 0x13, 0xd6, 0xbe, 0xe7, 0x55, 0xa0, 0x3d, 0x99, 0x44, 0x7e, 0x3c, 
  0x49, 0xa6, 0xa5, 0x3e, 0x1b, 0xc4, 0x67, 0xc0, 0xa6, 0x14, 0x84, 0xbe, 
  0x0a, 0xb7, 0x06, 0x40, 0x1d, 0x1b, 0x93, 0x3f, 0xbe, 0x9e, 0xb0, 0xbe, 
  0x63, 0xf3, 0xd6, 0xbe, 0x53, 0xc2, 0xac, 0xbf, 0x39, 0x95, 0xae, 0xbe, 
  0x76, 0x3f, 0x85, 0xbf, 0x60, 0x25, 0x4b, 0xbf, 0xe7, 0x60, 0x97, 0x3d, 
  0xa0, 0x33, 0x98, 0x3d, 0xbf, 0xbc, 0x80, 0x3e, 0xb7, 0x4c, 0x4d, 0x3e, 
  0xf7, 0xb5, 0x1f, 0x3d, 0x51, 0x2b, 0x74, 0x3d, 0x6f, 0x07, 0x52, 0x3f, 
  0x0a, 0x67, 0xeb, 0x3c, 0x0d, 0xf5, 0x2b, 0xbf, 0xb2, 0x24, 0x1b, 0x3e, 
  0xcd, 0xdf, 0x70, 0xbe, 0x15, 0x68, 0xc6, 0x3d, 0x39, 0x65, 0x12, 0xbc, 
  0xaf, 0x1b, 0x98, 0x3e, 0x40, 0xdf, 0x9a, 0xbe, 0x9c, 0x82, 0xf5, 0xbf, 
  0x46, 0x6d, 0x32, 0x3d, 0xea, 0xa2, 0xfd, 0xbd, 0x2d, 0x45, 0x66, 0xbe, 
  0xa2, 0x96, 0xe7, 0x3e, 0x45, 0x30, 0xb3, 0x3e, 0x4b, 0x52, 0x72, 0x3f, 
  0x02, 0x70, 0xc4, 0x3d, 0x84, 0xc3, 0x82, 0xc0, 0x44, 0x64, 0xe8, 0x3e, 
  0xc6, 0xaa, 0x25, 0x3f, 0xe6, 0xe3, 0xa5, 0xbd, 0x6d, 0x08, 0x80, 0xbe, 
  0x38, 0xf4, 0xfb, 0xbf, 0x1a, 0x0c, 0x0f, 0x40, 0xa8, 0x25, 0x8e, 0x3f, 
  0xa1, 0x3c, 0x57, 0xbf, 0xca, 0x33, 0xf1, 0xbd, 0x87, 0xe1, 0xde, 0x3e, 
  0x52, 0x00, 0xbc, 0x3e, 0xd7, 0x07, 0x99, 0xbe, 0x78, 0x29, 0x85, 0x3f, 
  0x09, 0xb9, 0x4a, 0x3f, 0xfe, 0xd6, 0x58, 0xbe, 0x1b, 0xac, 0x66, 0xbd, 
  0x42, 0x50, 0xb9, 0x3e, 0xb6, 0xdc, 0x24, 0x3f, 0xac, 0x88, 0x34, 0xbe, 
  0x1b, 0x4e, 0x87, 0x3f, 0x65, 0x9f, 0xce, 0xbe, 0xf7, 0x75, 0xc9, 0x3e, 
  0x39, 0x43, 0x1a, 0x3f, 0x20, 0x45, 0xcc, 0x3f, 0x9c, 0x43, 0x5f, 0x3f, 
  0x38, 0x6a, 0x2c, 0x3e, 0x34, 0xdd, 0x84, 0x3f, 0x84, 0x4a, 0xec, 0x3e, 
  0xd1, 0x95, 0x36, 0x3f, 0xda, 0x47, 0xe2, 0x3e, 0x48, 0x3f, 0x87, 0xbe, 
  0xcb, 0xf3, 0x9b, 0x3f, 0xb7, 0x0b, 0xe7, 0x3e, 0xea, 0xba, 0x8a, 0xbf, 
  0x98, 0xf8, 0xbf, 0x3e, 0x55, 0xb8, 0xc0, 0xbd, 0x1e, 0xc2, 0x2b, 0xbe, 
  0x2e, 0x3c, 0x1e, 0xbf, 0x00, 0x67, 0xdb, 0x3e, 0x23, 0x32, 0x10, 0xbe, 
  0xbb, 0xc6, 0x07, 0xbe, 0xda, 0xc3, 0x1c, 0x3f, 0x08, 0x74, 0x7b, 0x3e, 
  0x39, 0x85, 0xa1, 0xbe, 0x2d, 0x32, 0x81, 0x3e, 0x32, 0xac, 0x60, 0x3f, 
  0xe5, 0xad, 0x44, 0x3e, 0xeb, 0x5e, 0x61, 0xbe, 0x6a, 0x4f, 0x86, 0x3f, 
  0x0d, 0x9d, 0x22, 0x3f, 0x4f, 0x89, 0x59, 0x3f, 0x81, 0x23, 0xc1, 0xbe, 
  0x6d, 0x3c, 0x8b, 0x3e, 0x42, 0xb6, 0xe2, 0x3e, 0x9e, 0xec, 0x2b, 0xbf, 
  0x31, 0x1c, 0x2e, 0xbf, 0xd7, 0x0b, 0x4d, 0xbe, 0x48, 0xf9, 0x0e, 0xc0, 
  0xc2, 0x70, 0x59, 0x3e, 0xc8, 0x27, 0x2c, 0xbf, 0xeb, 0x5e, 0xb3, 0x3f, 
  0x40, 0xc7, 0x3a, 0x3f, 0x4a, 0x81, 0xf9, 0xbd, 0xbd, 0x13, 0xa7, 0x3c, 
  0xb0, 0xdf, 0xe0, 0x3b, 0xfe, 0x35, 0x2b, 0xbe, 0xb1, 0x59, 0x10, 0x3e, 
  0xc0, 0x9b, 0x69, 0xbe, 0x57, 0x3d, 0xee, 0x3b, 0xd5, 0x22, 0x4d, 0xc0, 
  0x36, 0x2d, 0xc6, 0x3d, 0x81, 0x21, 0x61, 0x3e, 0x73, 0x0e, 0x93, 0x3e, 
  0x15, 0x91, 0x0f, 0xbe, 0x6c, 0xb3, 0x32, 0xc0, 0x2f, 0xab, 0x94, 0xbe, 
  0x2b, 0x34, 0x73, 0x3f, 0x37, 0x08, 0x80, 0x3e, 0x71, 0x52, 0x86, 0xc0, 
  0x0a, 0x00, 0x96, 0xbe, 0x66, 0x78, 0xe7, 0xbc, 0xcc, 0x84, 0x9a, 0x3e, 
  0x88, 0xb5, 0x42, 0xbe, 0x27, 0x53, 0x79, 0x3f, 0x48, 0xe9, 0x44, 0xbe, 
  0xf0, 0xe1, 0xcf, 0x3d, 0x25, 0x96, 0xf2, 0xbe, 0xb0, 0x16, 0x80, 0xbc, 
  0x5c, 0x3c, 0x12, 0xbf, 0x37, 0x42, 0x16, 0xbf, 0x00, 0x49, 0xb1, 0x3e, 
  0xad, 0x5d, 0x79, 0x3e, 0x30, 0xa7, 0x48, 0xbe, 0x09, 0x9d, 0xdb, 0xc0, 
  0xe3, 0x63, 0xde, 0x3e, 0x91, 0x37, 0x61, 0xbe, 0x37, 0x7e, 0x01, 0x3f, 
  0xe1, 0xf9, 0x3b, 0xbf, 0x1e, 0xfe, 0xff, 0xff, 0x04, 0x00, 0x00, 0x00, 
  0x40, 0x01, 0x00, 0x00, 0xcb, 0xad, 0xb6, 0xbe, 0x80, 0x60, 0x25, 0x3e, 
  0x61, 0xcd, 0xb0, 0xbe, 0x88, 0x9e, 0x81, 0xbe, 0xd6, 0xf1, 0x8b, 0x3f, 
  0x62, 0x39, 0x90, 0xbe, 0xf2, 0xa1, 0x0f, 0x3f, 0x20, 0xcd, 0x66, 0xbf, 
  0x59, 0x9e, 0xb2, 0xbc, 0x0f, 0xa6, 0x6e, 0x3f, 0x54, 0xa5, 0x5f, 0x3f, 
  0x64, 0xcb, 0xca, 0xbf, 0xb7, 0x8a, 0xd6, 0x3e, 0x66, 0xed, 0xc0, 0xbe, 
  0xbd, 0xeb, 0x8f, 0xbf, 0x86, 0x2b, 0x0d, 0x3f, 0xfd, 0x3a, 0xb4, 0x3f, 
  0xab, 0x3c, 0xb6, 0x3e, 0x86, 0xc6, 0x82, 0x3d, 0xb5, 0x4e, 0xbd, 0x3e, 
  0xbd, 0xff, 0xa5, 0xbe, 0x8b, 0x0d, 0x1b, 0x3f, 0xa7, 0x80, 0xb5, 0xbf, 
  0x4c, 0xfd, 0xa7, 0xbf, 0x5e, 0xc9, 0x06, 0x3e, 0x1b, 0x0f, 0xba, 0x3d, 
  0xf7, 0x70, 0x09, 0xc0, 0xd0, 0x4b, 0xd6, 0xbf, 0xf8, 0x96, 0x25, 0xbf, 
  0xf8, 0xed, 0x82, 0xbf, 0xcb, 0xa2, 0x84, 0x3f, 0x60, 0x1c, 0x97, 0xbf, 
  0x76, 0x6b, 0x71, 0x3b, 0x52, 0x77, 0xe3, 0xbf, 0x7b, 0xb7, 0x24, 0xbf, 
  0x4b, 0xe5, 0x43, 0x3f, 0x31, 0x9f, 0xc3, 0x3e, 0x4b, 0x37, 0xbd, 0xbf, 
  0xb4, 0x65, 0x22, 0xbd, 0x18, 0xdf, 0x96, 0xbe, 0x52, 0x0f, 0x71, 0xbd, 
  0xd9, 0xb3, 0x4b, 0xbd, 0x0e, 0xc4, 0x02, 0xc0, 0x4e, 0x83, 0xc7, 0x3e, 
  0xd8, 0xa8, 0x36, 0x3f, 0xae, 0xc0, 0xc1, 0x3e, 0xb8, 0x70, 0x5e, 0xbd, 
  0x97, 0xd3, 0x7b, 0xbf, 0x8b, 0x24, 0x3a, 0xbf, 0x8a, 0x08, 0xaa, 0x3f, 
  0xa2, 0xe4, 0x6f, 0xbf, 0xf3, 0x03, 0xee, 0x3d, 0x85, 0x17, 0x28, 0x3f, 
  0x37, 0xa2, 0x5f, 0xbe, 0xfe, 0xce, 0x13, 0x40, 0xbc, 0x36, 0xc6, 0x3f, 
  0x14, 0xc5, 0x28, 0xbe, 0x42, 0x35, 0xcd, 0xbf, 0x31, 0xea, 0xb0, 0xbf, 
  0x26, 0x4a, 0x18, 0x40, 0x0c, 0xff, 0x0d, 0xc0, 0xcf, 0x00, 0x98, 0xbf, 
  0xce, 0x1d, 0x10, 0x3e, 0x65, 0x2f, 0xa6, 0x3f, 0x47, 0x7a, 0x18, 0xbe, 
  0xe7, 0xb6, 0x01, 0xbf, 0xf8, 0xd5, 0x81, 0x3f, 0x37, 0xef, 0x13, 0xc0, 
  0x20, 0xbb, 0xba, 0xbf, 0x98, 0x02, 0xa8, 0x3e, 0x66, 0x30, 0xc6, 0xbe, 
  0xce, 0xb0, 0xd3, 0x3e, 0xac, 0x0f, 0xf7, 0xbf, 0x32, 0x53, 0x0a, 0x3f, 
  0x70, 0x12, 0x43, 0x3e, 0xe9, 0x1e, 0xc5, 0xbf, 0x0e, 0x87, 0x4d, 0xbe, 
  0xc2, 0xd7, 0xf3, 0x3f, 0xde, 0x6e, 0x7a, 0xbe, 0xee, 0x75, 0xb5, 0x3e, 
  0x58, 0xfa, 0xff, 0xff, 0x5c, 0xfa, 0xff, 0xff, 0x0f, 0x00, 0x00, 0x00, 
  0x4d, 0x4c, 0x49, 0x52, 0x20, 0x43, 0x6f, 0x6e, 0x76, 0x65, 0x72, 0x74, 
  0x65, 0x64, 0x2e, 0x00, 0x01, 0x00, 0x00, 0x00, 0x14, 0x00, 0x00, 0x00, 
  0x00, 0x00, 0x0e, 0x00, 0x18, 0x00, 0x14, 0x00, 0x10, 0x00, 0x0c, 0x00, 
  0x08, 0x00, 0x04, 0x00, 0x0e, 0x00, 0x00, 0x00, 0x14, 0x00, 0x00, 0x00, 
  0x1c, 0x00, 0x00, 0x00, 0x34, 0x01, 0x00, 0x00, 0x38, 0x01, 0x00, 0x00, 
  0x3c, 0x01, 0x00, 0x00, 0x04, 0x00, 0x00, 0x00, 0x6d, 0x61, 0x69, 0x6e, 
  0x00, 0x00, 0x00, 0x00, 0x04, 0x00, 0x00, 0x00, 0xdc, 0x00, 0x00, 0x00, 
  0x94, 0x00, 0x00, 0x00, 0x50, 0x00, 0x00, 0x00, 0x14, 0x00, 0x00, 0x00, 
  0x00, 0x00, 0x0e, 0x00, 0x1a, 0x00, 0x14, 0x00, 0x10, 0x00, 0x0c, 0x00, 
  0x0b, 0x00, 0x04, 0x00, 0x0e, 0x00, 0x00, 0x00, 0x1c, 0x00, 0x00, 0x00, 
  0x00, 0x00, 0x00, 0x09, 0x1c, 0x00, 0x00, 0x00, 0x20, 0x00, 0x00, 0x00, 
  0x01, 0x00, 0x00, 0x00, 0x00, 0x00, 0x06, 0x00, 0x08, 0x00, 0x04, 0x00, 
  0x06, 0x00, 0x00, 0x00, 0x00, 0x00, 0x80, 0x3f, 0x01, 0x00, 0x00, 0x00, 
  0x0a, 0x00, 0x00, 0x00, 0x01, 0x00, 0x00, 0x00, 0x09, 0x00, 0x00, 0x00, 
  0xce, 0xff, 0xff, 0xff, 0x10, 0x00, 0x00, 0x00, 0x00, 0x00, 0x00, 0x08, 
  0x0c, 0x00, 0x00, 0x00, 0x10, 0x00, 0x00, 0x00, 0x20, 0xfb, 0xff, 0xff, 
  0x01, 0x00, 0x00, 0x00, 0x09, 0x00, 0x00, 0x00, 0x03, 0x00, 0x00, 0x00, 
  0x08, 0x00, 0x00, 0x00, 0x01, 0x00, 0x00, 0x00, 0x03, 0x00, 0x00, 0x00, 
  0x00, 0x00, 0x0e, 0x00, 0x14, 0x00, 0x00, 0x00, 0x10, 0x00, 0x0c, 0x00, 
  0x0b, 0x00, 0x04, 0x00, 0x0e, 0x00, 0x00, 0x00, 0x10, 0x00, 0x00, 0x00, 
  0x00, 0x00, 0x00, 0x08, 0x10, 0x00, 0x00, 0x00, 0x14, 0x00, 0x00, 0x00, 
  0xba, 0xff, 0xff, 0xff, 0x00, 0x00, 0x00, 0x01, 0x01, 0x00, 0x00, 0x00, 
  0x08, 0x00, 0x00, 0x00, 0x03, 0x00, 0x00, 0x00, 0x07, 0x00, 0x00, 0x00, 
  0x02, 0x00, 0x00, 0x00, 0x04, 0x00, 0x00, 0x00, 0x00, 0x00, 0x0e, 0x00, 
  0x16, 0x00, 0x00, 0x00, 0x10, 0x00, 0x0c, 0x00, 0x0b, 0x00, 0x04, 0x00, 
  0x0e, 0x00, 0x00, 0x00, 0x18, 0x00, 0x00, 0x00, 0x00, 0x00, 0x00, 0x08, 
  0x18, 0x00, 0x00, 0x00, 0x1c, 0x00, 0x00, 0x00, 0x00, 0x00, 0x06, 0x00, 
  0x08, 0x00, 0x07, 0x00, 0x06, 0x00, 0x00, 0x00, 0x00, 0x00, 0x00, 0x01, 
  0x01, 0x00, 0x00, 0x00, 0x07, 0x00, 0x00, 0x00, 0x03, 0x00, 0x00, 0x00, 
  0x00, 0x00, 0x00, 0x00, 0x06, 0x00, 0x00, 0x00, 0x05, 0x00, 0x00, 0x00, 
  0x01, 0x00, 0x00, 0x00, 0x0a, 0x00, 0x00, 0x00, 0x01, 0x00, 0x00, 0x00, 
  0x00, 0x00, 0x00, 0x00, 0x0b, 0x00, 0x00, 0x00, 0xf8, 0x03, 0x00, 0x00, 
  0xa0, 0x03, 0x00, 0x00, 0x48, 0x03, 0x00, 0x00, 0x0c, 0x03, 0x00, 0x00, 
  0xd0, 0x02, 0x00, 0x00, 0x74, 0x02, 0x00, 0x00, 0x24, 0x02, 0x00, 0x00, 
  0x84, 0x01, 0x00, 0x00, 0xe4, 0x00, 0x00, 0x00, 0x60, 0x00, 0x00, 0x00, 
  0x04, 0x00, 0x00, 0x00, 0x4a, 0xfc, 0xff, 0xff, 0x00, 0x00, 0x00, 0x01, 
  0x14, 0x00, 0x00, 0x00, 0x1c, 0x00, 0x00, 0x00, 0x1c, 0x00, 0x00, 0x00, 
  0x0b, 0x00, 0x00, 0x00, 0x34, 0x00, 0x00, 0x00, 0x02, 0x00, 0x00, 0x00, 
  0xff, 0xff, 0xff, 0xff, 0x05, 0x00, 0x00, 0x00, 0x34, 0xfc, 0xff, 0xff, 
  0x1b, 0x00, 0x00, 0x00, 0x53, 0x74, 0x61, 0x74, 0x65, 0x66, 0x75, 0x6c, 
  0x50, 0x61, 0x72, 0x74, 0x69, 0x74, 0x69, 0x6f, 0x6e, 0x65, 0x64, 0x43, 
  0x61, 0x6c, 0x6c, 0x5f, 0x31, 0x3a, 0x30, 0x00, 0x02, 0x00, 0x00, 0x00, 
  0x01, 0x00, 0x00, 0x00, 0x05, 0x00, 0x00, 0x00, 0xa2, 0xfc, 0xff, 0xff, 
  0x00, 0x00, 0x00, 0x01, 0x14, 0x00, 0x00, 0x00, 0x1c, 0x00, 0x00, 0x00, 
  0x1c, 0x00, 0x00, 0x00, 0x0a, 0x00, 0x00, 0x00, 0x5c, 0x00, 0x00, 0x00, 
  0x02, 0x00, 0x00, 0x00, 0xff, 0xff, 0xff, 0xff, 0x05, 0x00, 0x00, 0x00, 
  0x8c, 0xfc, 0xff, 0xff, 0x40, 0x00, 0x00, 0x00, 0x73, 0x65, 0x71, 0x75, 
  0x65, 0x6e, 0x74, 0x69, 0x61, 0x6c, 0x5f, 0x31, 0x5f, 0x31, 0x2f, 0x64, 
  0x65, 0x6e, 0x73, 0x65, 0x5f, 0x35, 0x5f, 0x31, 0x2f, 0x4d, 0x61, 0x74, 
  0x4d, 0x75, 0x6c, 0x3b, 0x73, 0x65, 0x71, 0x75, 0x65, 0x6e, 0x74, 0x69, 
  0x61, 0x6c, 0x5f, 0x31, 0x5f, 0x31, 0x2f, 0x64, 0x65, 0x6e, 0x73, 0x65, 
  0x5f, 0x35, 0x5f, 0x31, 0x2f, 0x42, 0x69, 0x61, 0x73, 0x41, 0x64, 0x64, 
  0x00, 0x00, 0x00, 0x00, 0x02, 0x00, 0x00, 0x00, 0x01, 0x00, 0x00, 0x00, 
  0x05, 0x00, 0x00, 0x00, 0x22, 0xfd, 0xff, 0xff, 0x00, 0x00, 0x00, 0x01, 
  0x14, 0x00, 0x00, 0x00, 0x1c, 0x00, 0x00, 0x00, 0x1c, 0x00, 0x00, 0x00, 
  0x09, 0x00, 0x00, 0x00, 0x78, 0x00, 0x00, 0x00, 0x02, 0x00, 0x00, 0x00, 
  0xff, 0xff, 0xff, 0xff, 0x10, 0x00, 0x00, 0x00, 0x0c, 0xfd, 0xff, 0xff, 
  0x5e, 0x00, 0x00, 0x00, 0x73, 0x65, 0x71, 0x75, 0x65, 0x6e, 0x74, 0x69, 
  0x61, 0x6c, 0x5f, 0x31, 0x5f, 0x31, 0x2f, 0x64, 0x65, 0x6e, 0x73, 0x65, 
  0x5f, 0x34, 0x5f, 0x31, 0x2f, 0x4d, 0x61, 0x74, 0x4d, 0x75, 0x6c, 0x3b, 
  0x73, 0x65, 0x71, 0x75, 0x65, 0x6e, 0x74, 0x69, 0x61, 0x6c, 0x5f, 0x31, 
  0x5f, 0x31, 0x2f, 0x64, 0x65, 0x6e, 0x73, 0x65, 0x5f, 0x34, 0x5f, 0x31, 
  0x2f, 0x52, 0x65, 0x6c, 0x75, 0x3b, 0x73, 0x65, 0x71, 0x75, 0x65, 0x6e, 
  0x74, 0x69, 0x61, 0x6c, 0x5f, 0x31, 0x5f, 0x31, 0x2f, 0x64, 0x65, 0x6e, 
  0x73, 0x65, 0x5f, 0x34, 0x5f, 0x31, 0x2f, 0x42, 0x69, 0x61, 0x73, 0x41, 
  0x64, 0x64, 0x00, 0x00, 0x02, 0x00, 0x00, 0x00, 0x01, 0x00, 0x00, 0x00, 
  0x10, 0x00, 0x00, 0x00, 0xbe, 0xfd, 0xff, 0xff, 0x00, 0x00, 0x00, 0x01, 
  0x14, 0x00, 0x00, 0x00, 0x1c, 0x00, 0x00, 0x00, 0x1c, 0x00, 0x00, 0x00, 
  0x08, 0x00, 0x00, 0x00, 0x78, 0x00, 0x00, 0x00, 0x02, 0x00, 0x00, 0x00, 
  0xff, 0xff, 0xff, 0xff, 0x20, 0x00, 0x00, 0x00, 0xa8, 0xfd, 0xff, 0xff, 
  0x5e, 0x00, 0x00, 0x00, 0x73, 0x65, 0x71, 0x75, 0x65, 0x6e, 0x74, 0x69, 
  0x61, 0x6c, 0x5f, 0x31, 0x5f, 0x31, 0x2f, 0x64, 0x65, 0x6e, 0x73, 0x65, 
  0x5f, 0x33, 0x5f, 0x31, 0x2f, 0x4d, 0x61, 0x74, 0x4d, 0x75, 0x6c, 0x3b, 
  0x73, 0x65, 0x71, 0x75, 0x65, 0x6e, 0x74, 0x69, 0x61, 0x6c, 0x5f, 0x31, 
  0x5f, 0x31, 0x2f, 0x64, 0x65, 0x6e, 0x73, 0x65, 0x5f, 0x33, 0x5f, 0x31, 
  0x2f, 0x52, 0x65, 0x6c, 0x75, 0x3b, 0x73, 0x65, 0x71, 0x75, 0x65, 0x6e, 
  0x74, 0x69, 0x61, 0x6c, 0x5f, 0x31, 0x5f, 0x31, 0x2f, 0x64, 0x65, 0x6e, 
  0x73, 0x65, 0x5f, 0x33, 0x5f, 0x31, 0x2f, 0x42, 0x69, 0x61, 0x73, 0x41, 
  0x64, 0x64, 0x00, 0x00, 0x02, 0x00, 0x00, 0x00, 0x01, 0x00, 0x00, 0x00, 
  0x20, 0x00, 0x00, 0x00, 0xae, 0xfe, 0xff, 0xff, 0x00, 0x00, 0x00, 0x01, 
  0x10, 0x00, 0x00, 0x00, 0x10, 0x00, 0x00, 0x00, 0x07, 0x00, 0x00, 0x00, 
  0x2c, 0x00, 0x00, 0x00, 0x34, 0xfe, 0xff, 0xff, 0x1f, 0x00, 0x00, 0x00, 
  0x73, 0x65, 0x71, 0x75, 0x65, 0x6e, 0x74, 0x69, 0x61, 0x6c, 0x5f, 0x31, 
  0x5f, 0x31, 0x2f, 0x64, 0x65, 0x6e, 0x73, 0x65, 0x5f, 0x33, 0x5f, 0x31, 
  0x2f, 0x4d, 0x61, 0x74, 0x4d, 0x75, 0x6c, 0x00, 0x02, 0x00, 0x00, 0x00, 
  0x20, 0x00, 0x00, 0x00, 0x0f, 0x00, 0x00, 0x00, 0xfa, 0xfe, 0xff, 0xff, 
  0x00, 0x00, 0x00, 0x01, 0x10, 0x00, 0x00, 0x00, 0x10, 0x00, 0x00, 0x00, 
  0x06, 0x00, 0x00, 0x00, 0x3c, 0x00, 0x00, 0x00, 0x80, 0xfe, 0xff, 0xff, 
  0x2f, 0x00, 0x00, 0x00, 0x73, 0x65, 0x71, 0x75, 0x65, 0x6e, 0x74, 0x69, 
  0x61, 0x6c, 0x5f, 0x31, 0x5f, 0x31, 0x2f, 0x64, 0x65, 0x6e, 0x73, 0x65, 
  0x5f, 0x33, 0x5f, 0x31, 0x2f, 0x42, 0x69, 0x61, 0x73, 0x41, 0x64, 0x64, 
  0x2f, 0x52, 0x65, 0x61, 0x64, 0x56, 0x61, 0x72, 0x69, 0x61, 0x62, 0x6c, 
  0x65, 0x4f, 0x70, 0x00, 0x01, 0x00, 0x00, 0x00, 0x20, 0x00, 0x00, 0x00, 
  0x52, 0xff, 0xff, 0xff, 0x00, 0x00, 0x00, 0x01, 0x10, 0x00, 0x00, 0x00, 
  0x10, 0x00, 0x00, 0x00, 0x05, 0x00, 0x00, 0x00, 0x1c, 0x00, 0x00, 0x00, 
  0xd8, 0xfe, 0xff, 0xff, 0x0f, 0x00, 0x00, 0x00, 0x61, 0x72, 0x69, 0x74, 
  0x68, 0x2e, 0x63, 0x6f, 0x6e, 0x73, 0x74, 0x61, 0x6e, 0x74, 0x33, 0x00, 
  0x01, 0x00, 0x00, 0x00, 0x10, 0x00, 0x00, 0x00, 0x8a, 0xff, 0xff, 0xff, 
  0x00, 0x00, 0x00, 0x01, 0x10, 0x00, 0x00, 0x00, 0x10, 0x00, 0x00, 0x00, 
  0x04, 0x00, 0x00, 0x00, 0x1c, 0x00, 0x00, 0x00, 0x10, 0xff, 0xff, 0xff, 
  0x0f, 0x00, 0x00, 0x00, 0x61, 0x72, 0x69, 0x74, 0x68, 0x2e, 0x63, 0x6f, 
  0x6e, 0x73, 0x74, 0x61, 0x6e, 0x74, 0x32, 0x00, 0x01, 0x00, 0x00, 0x00, 
  0x05, 0x00, 0x00, 0x00, 0xc2, 0xff, 0xff, 0xff, 0x00, 0x00, 0x00, 0x01, 
  0x10, 0x00, 0x00, 0x00, 0x10, 0x00, 0x00, 0x00, 0x03, 0x00, 0x00, 0x00, 
  0x1c, 0x00, 0x00, 0x00, 0x48, 0xff, 0xff, 0xff, 0x0f, 0x00, 0x00, 0x00, 
  0x61, 0x72, 0x69, 0x74, 0x68, 0x2e, 0x63, 0x6f, 0x6e, 0x73, 0x74, 0x61, 
  0x6e, 0x74, 0x31, 0x00, 0x02, 0x00, 0x00, 0x00, 0x10, 0x00, 0x00, 0x00, 
  0x20, 0x00, 0x00, 0x00, 0x00, 0x00, 0x16, 0x00, 0x18, 0x00, 0x14, 0x00, 
  0x00, 0x00, 0x10, 0x00, 0x0c, 0x00, 0x08, 0x00, 0x00, 0x00, 0x00, 0x00, 
  0x00, 0x00, 0x07, 0x00, 0x16, 0x00, 0x00, 0x00, 0x00, 0x00, 0x00, 0x01, 
  0x10, 0x00, 0x00, 0x00, 0x10, 0x00, 0x00, 0x00, 0x02, 0x00, 0x00, 0x00, 
  0x1c, 0x00, 0x00, 0x00, 0x9c, 0xff, 0xff, 0xff, 0x0e, 0x00, 0x00, 0x00, 
  0x61, 0x72, 0x69, 0x74, 0x68, 0x2e, 0x63, 0x6f, 0x6e, 0x73, 0x74, 0x61, 
  0x6e, 0x74, 0x00, 0x00, 0x02, 0x00, 0x00, 0x00, 0x05, 0x00, 0x00, 0x00, 
  0x10, 0x00, 0x00, 0x00, 0x00, 0x00, 0x16, 0x00, 0x1c, 0x00, 0x18, 0x00, 
  0x00, 0x00, 0x14, 0x00, 0x10, 0x00, 0x0c, 0x00, 0x00, 0x00, 0x00, 0x00, 
  0x08, 0x00, 0x07, 0x00, 0x16, 0x00, 0x00, 0x00, 0x00, 0x00, 0x00, 0x01, 
  0x14, 0x00, 0x00, 0x00, 0x20, 0x00, 0x00, 0x00, 0x20, 0x00, 0x00, 0x00, 
  0x01, 0x00, 0x00, 0x00, 0x40, 0x00, 0x00, 0x00, 0x02, 0x00, 0x00, 0x00, 
  0xff, 0xff, 0xff, 0xff, 0x0f, 0x00, 0x00, 0x00, 0x04, 0x00, 0x04, 0x00, 
  0x04, 0x00, 0x00, 0x00, 0x20, 0x00, 0x00, 0x00, 0x73, 0x65, 0x72, 0x76, 
  0x69, 0x6e, 0x67, 0x5f, 0x64, 0x65, 0x66, 0x61, 0x75, 0x6c, 0x74, 0x5f, 
  0x6b, 0x65, 0x72, 0x61, 0x73, 0x5f, 0x74, 0x65, 0x6e, 0x73, 0x6f, 0x72, 
  0x5f, 0x35, 0x3a, 0x30, 0x00, 0x00, 0x00, 0x00, 0x02, 0x00, 0x00, 0x00, 
  0x01, 0x00, 0x00, 0x00, 0x0f, 0x00, 0x00, 0x00, 0x02, 0x00, 0x00, 0x00, 
  0x20, 0x00, 0x00, 0x00, 0x04, 0x00, 0x00, 0x00, 0xf4, 0xff, 0xff, 0xff, 
  0x19, 0x00, 0x00, 0x00, 0x00, 0x00, 0x00, 0x19, 0x0c, 0x00, 0x0c, 0x00, 
  0x0b, 0x00, 0x00, 0x00, 0x00, 0x00, 0x04, 0x00, 0x0c, 0x00, 0x00, 0x00, 
  0x09, 0x00, 0x00, 0x00, 0x00, 0x00, 0x00, 0x09, 
};
const int g_model_len = 6620;